0000001100110010
0000001111010001
1000001000001001
0000000111100011
0000001000111001
0000010101011011
0000100100101011
0000010101001011
1000000011101101
1000000011100100
0000100011100001
1000001010011110
1000010011000111
1000001110011111
1000001000101000
0000001101010011
1000010000101010
1000000000010000
0000001110100000
1000010100100100
1000000010110011
1000001011100000
0000011000000100
0000001111010110
1000001110110000
1000010101100111
1000001101000101
1000000101101010
0000000011110011
0000000111110010
0000011011111001
0000000111000111
0000000010011010
1000010001110111
1000000001110101
0000000100111000
0000001111010110
0000100100001000
0000000010101100
1000010011000010
0000011011010000
0000011110011110
1000010010000001
1000010100001110
0000011001110100
0000001110111010
1000011110110111
1000000100011111
1000010001100110
0000001111100010
1000011001110010
1000000001111001
1000100001000011
1000001001000001
1000010100000011
0000000010100001
1000000101110110
1000100111111011
1000001010000111
1000000011001111
1000001000001011
1000011101100000
1000011000010000
0000001011001001
1000001101100110
1000100000100001
1000011110001010
0000001000111011
1000000010110001
0000000001101011
1000001010110101
0000010111010111
0000101001010110
0000011001110011
1000010011110010
1000010101000111
0000010001110111
0000001111011100
1000101001111010
1000100011100001
0000001001111111
0000100000010000
0000001100100100
1000100110010101
1000001101110001
1000011101011010
1000001101100101
1000001010101100
0000000100010001
1000001110010001
0000011101101111
1000100011000110
1000100100110011
0000001001110010
0000000101101000
0000000100001111
1000001001010100
1000000110110100
0000010011110101
1000000011100000
0000011100001110
0000001100110011
1000001000010101
0000000100101111
1000001110000011
0000100001011110
1000000010010111
1000010100100110
1000001111101110
1000001101110100
0000011111010110
1000000001101100
0000001010101001
1000100001010111
1000010010110101
0000100010010111
0000010110101101
1000010010001011
1000000000111011
0000010100110010
0000011100101100
0000011001110001
1000000001110000
1000011001111111
0000010011101001
1000100010011001
1000010001011101
0000010000001001
1000010110011100
1000000100101110
1000101011010110
1000000110100001
1000011011000101
1000010001010010
1000001011111100
1000001011010001
0000011000000111
1000101011101011
0000001100011010
1000000100100101
1000010110111110
1000010010001100
1000001100000101
0000010110110000
0000000100001001
1000010101100100
1000100010011010
1000010101101011
1000001001100011
0000011000000111
0000010000101010
1000010011011010
1000101001101100
1000001100111001
1000010010111111
0000010000111111
1000101010011100
1000010110010000
1000000100110011
1000001000011101
0000110011011010
1000100010011010
1000010100000011
1000000100110010
0000011011010101
0000100110100101
1000001100011111
1000000001110000
0000001100001010
1000010001100001
0000101110100110
1000011011010001
0000010100110000
1000000000011001
1000000010110001
1000000111010001
0000000010110000
1000001011110001
1000010000110111
0000000111100101
0000001111111101
1000000110001110
0000001000101110
1000010001011100
1000001010011000
1000000110011011
0000010010100010
1000010011010011
1000101010001011
1000010000110100
0000000101110100
0000011000101110
1000001110011110
1000010110011010
0000000011110110
1000000001000111
1000001111100011
1000010110001011
1000001101010111
0000000001011110
0000001010000111
1000001110111000
0000011111100101
0000111010010010
0000001011001110
0000010001010110
1000010101110100
0000001110111101
0000010100111010
0000001001000111
0000110110100110
1000000000100110
0000110001101000
0000110000100110
0000010011110001
0000110011000111
0000001100111101
0000010010101111
0000011100011110
1000000011011101
0000110110100110
1000010010011100
0000000011100000
0000010100011000
0000010100010000
0000001000000110
1000000010100100
1000000110101001
0000011000010001
1000000111100001
1000000011010000
0000001111100010
0000001100000101
0000011001000110
1000000010101100
1000000000100101
0000001001001000
0000000100101011
0000001011101010
1000010110100101
0000010101001010
0000100001101000
1000011100100011
1000101001000101
1000010101100100
0000011010001000
0000100110111111
1000000101001011
1000011000000000
0000001000001100
1000001000000001
1000001100001100
1000001010010111
0000011010010011
0000000011011010
1000001101001110
1000001001100110
0000010011000010
0000010011001001
0000100011100011
0000000011110100
0000001000011110
0000010100010100
0000001011101001
0000101100001011
1000000000110100
0000010100010001
0000110011001000
0000000101011100
0000000101010101
0000000101111100
0000000011011100
0000011100111011
0000010010011100
1000011000001010
0000001100110011
1000000110101000
1000000110101110
1000010101010110
1000110000010111
1000001011010100
1000000100100000
1000010010010001
1000101000101111
1000100101011010
0000010100101010
0000011110001111
1000100111010000
1000100000110110
1000000010101000
0000001101010110
0000101101000000
1000011100001001
1000011010010001
1000010010000010
0000011111101000
0000011101010100
1000001110011000
0000011100101110
1000000101011010
0000100010110101
0000000010110100
0000000101110001
0000001010101110
1000100011000001
0000010110000000
0000000110101101
1000001111101011
1000101011100000
1000010111010110
0000001001100011
1000001011101010
0000011011111000
0000000011001111
1000001101011000
1000000100011101
0000001001001100
0000010111010010
0000000011010000
1000011101001111
1000010001110110
0000001000011111
0000000110011010
0000010111001010
1000011000111111
0000000100110001
0000010101111101
0000000011101000
0000001111110111
0000010010010010
1000000110011000
1000000110001111
0000001111001000
0000010100101101
0000100000110110
1000001001100101
1000000000000110
0000011000010110
1000000100100000
0000010101000001
0000001000111000
1000000110000011
1000010010101000
1000000010010111
1000001111011000
0000000111100101
1000011111010101
0000010010010100
0000100010000011
0000000101000110
0000001101111000
0000010010100101
1000001011000101
1000001010001111
1000010111010011
0000010001101100
1000000011000000
0000000010001110
0000000110100011
0000001111110010
0000001110011011
1000000000000100
0000010111110000
0000001101100011
1000000010011011
1000000100111011
1000000011011110
0000001101011001
0000011001010111
1000001010001000
0000000011011011
0000100001001000
0000101100100001
0000100100000100
1000001111110011
1000100110000111
1000010101110100
0000001010110100
1000010011000000
1000001001001111
1000011100101101
0000001101011100
0000100111001101
0000100100000101
0000010101100111
1000001001000101
0000001100000100
0000100101111100
1000000001101010
0000010001010000
1000010011000011
0000010110001011
0000010100111001
0000010001001001
1000011011000110
0000001010001001
1000000100111111
1000001110001011
1000100101101110
1000011111011100
1000001001100010
0000000000111011
1000011000110101
1000001101000010
0000001010111111
1000001011101100
0000000011100111
0000000000000000
0000000100010010
1000001110101000
0000010010001100
0000001001100001
1000000000001001
1000001111011101
1000001000101110
0000100100111100
0000011101000110
1000010001011100
0000000011111101
1000001100110101
0000010000010000
0000000110011011
0000000000101000
1000000100110011
1000011011111100
1000001110101011
0000010000011111
0000100000001000
0000100110000111
0000000111100101
1000100110010100
0000011110101010
0000111101110001
1000000010100111
1000010111101000
1000100001010101
0000011001101100
0000100001011100
0000000110101000
1000000101000111
1000110100010101
0000011010011001
0000100010000011
0000000111010111
0000000110110011
1000100100010000
1000010111100000
0000001100110100
1000010001100011
0000000000011010
0000000000111100
0000100001011010
1000010100111001
0000000100110111
1000101011100100
1000000101010110
0000001100010001
0000001001000100
0000011101011010
1000001111000001
0000010001000110
1000001100011011
0000011110000111
0000001111001011
1000100001101010
0000001010111011
1000001110000001
1000001111011010
1000000010000001
1000000001001111
0000001010000010
1000010010001101
1000000111000101
1000001101011001
0000001110001101
1000000010000100
0000001110010001
0000100000000111
0000100010101111
1000010010111100
1000010001100110
1000000000000110
0000100000111101
1000000000110100
0000001011111001
1000001001001101
1000001101001110
0000000010010111
0000001011101000
1000011101101110
1000011110100011
0000000001011011
0000010001110101
0000001101000101
1000011010100111
0000000110011101
1000011101000011
1000001101101100
0000011010000111
1000000111011001
0000001010101010
0000010000011001
1000010011011111
1000001110111000
1000001101011110
0000101101001000
0000001010101001
0000000100000000
0000101001011101
1000011011010111
0000011110000000
0000011111100001
0000010111011101
0000011110010100
0000010000111001
0000001100100110
0000010001011101
0000100011111010
0000010100010001
0000001001100000
0000100011001001
0000100110011011
1000000100010100
0000010011001111
1000001011010110
0000011000101011
0000001010010111
0000000111110000
0000000001101000
0000011000000100
0000010011010010
0000100000100101
1000100101101101
1000000011001110
0000011000000100
1000000101010101
0000000000110110
1000011010000010
1000100100001000
0000100100010110
1000100011110100
0000001011100100
1000101111110001
1000001011100011
0000001101111011
1000010001010011
1000001100100110
0000000110100010
1000100000111000
1000000101001101
1000010010000110
0000000001011011
1000010101110101
1000100000100001
1000011000010110
0000001011000011
0000000101110100
0000001000110100
1000001011101011
1000010010101110
1000000100111100
0000100000100001
0000011110110000
0000001000010110
0000010001010110
1000001010010010
1000000111110111
0000001111000111
0000010101001101
0000001101110011
1000000010011111
0000000101100000
1000001001110100
0000010000100101
0000101011101001
0000001011100001
0000001111101111
1000001101000001
0000111100101100
0000010110011110
0000011110000100
0000011111111100
0000001101101000
1000011110111111
0000010111101001
0000011000011000
0000110000000010
1000010000000101
1000011101100010
1000011101100111
0000000010100100
0000011110001000
1000001001001101
1001000011111001
1000101101100011
1000011100001101
0000001010101111
0000000110110100
1000011101100110
1000110111111100
0000010001111100
1000011010100010
1000000101010111
1000011001010000
1000001001010001
1000000100110110
0000010100110000
1000000110011100
0000000100000000
1000011001101000
0000101011011001
0000010010100001
0000001110000100
0000010111000100
1000001011000110
0000100100100110
0000011101001001
0000010011100100
1000000000010101
1000011011101001
0000010101111111
1000011001100101
1000000001111000
0000010100010011
1000101001000011
1000001100101100
0000001100001101
1000010101000011
1000001100000100
1000001111001111
0000000001100011
0000011001011010
0000001000110000
1000010001111011
1000000101000001
0000011110001110
0000010101110100
0000001001000110
0000010101101010
0000001011101011
0000000101011101
0000011000001110
0000000011111011
0000001001111010
0000000110001011
0000001011100111
1000001011011111
0000010111010110
0000000011000100
0000000101000001
1000000011001111
0000000111101011
1000000010000011
1000001111110010
0000000010110100
0000010010110101
1000001111111111
1000100010011111
1000101001011110
1000000010101011
0000100100111001
1000000100100010
1000001001000010
1000001011011011
1000100001001010
0000100100110001
0000000111110011
0000001011111000
0000101101000000
1000100000111010
1000000101010110
0000001010001001
0000100101000111
0000100100111110
1000101000101101
0000000101000110
0000000100111010
0000110001000111
0000001110001011
0000001111111110
1000000110011011
0000010000101110
0000011110111110
1000001010010110
0000011000011000
0000001010100101
0000001000011101
0000010110110001
0000110000111001
1000001010010001
1000010111110111
1000001001011101
0000000111011010
0000000011001110
1000010101101101
0000001100011111
1000000110001101
1000001001111100
1000001101011100
1000000110000101
1000001000011011
1000010000100001
1000000001011001
0000011110111001
0000001000101111
1000010101100110
0000000001011100
1000001001111001
0000001010011000
0000000111000111
1000010101111011
1000001101110110
0000010101101111
1000000000111001
1000010011110001
1000001010011001
1000000111010001
1000000011000111
0000000001111011
0000010010001011
1000001001010011
1000001010000100
0000001111000111
1000000011000001
1000100001010001
1000000010011000
0000011011111100
0000010101110110
0000010110100101
0000011101111111
0000010100111010
0000100001001110
1000000000001011
0000011000111111
0000000011000000
1000000110111101
1000010011000110
0000010101000100
0000001001110111
0000001100110101
0000001101011001
0000010000111011
0000001011001001
0000100111110010
0000000000001000
1000001111111011
0000001011011010
1000000000000101
0000001111110001
1000000110110011
0000010000011111
1000001110011100
0000100110101100
0000010011111001
0000010100001010
0000000111001010
0000010111110001
0000001000100010
1000100000110001
0000001100100101
0000001111000001
1000000100010000
1000011000010101
0000000110010111
0000000101100011
0000001011101001
0000011110101011
1000011011000010
1000000001111001
0000001000101010
0000000010001111
1000010100100010
0000010101000011
0000000100111010
1000010100111110
1000001100010100
0000000010000111
0000001001101111
0000000010011001
0000100011010011
0000011000000000
1000001011010011
0000000100010010
0000001011001000
0000010000100000
0000000101010001
1000000101111000
0000000011010111
1000011001010001
0000001000011000
1000001001011110
0000000011110000
1000001101101111
1000010010010000
1000010110110000
0000001111000101
0000000100011101
0000000010001001
1000000001011101
1000000110001101
1000001010001000
0000001010000001
0000011111011110
0000001011110010
0000010111111111
1000001110111010
0000100101000000
0000000110100001
0000010010110110
0000101001101001
1000010001000100
0000100100010000
1000000010011111
0000100000000001
0000101000111010
0000000010101011
0000001000100111
0000000111110100
0000000100111001
1000010110001111
1000100011000111
1000000011100011
0000011100111111
0000110100100001
1000001111101111
0000010001101010
0000010010110110
1000000001110010
0000011111110101
0000011111110101
0000011011000011
1000000000111100
1000000000100010
0000101010101001
0000100000100110
0000010100101010
0000001000101101
0000011111010111
0000011000110101
0000001100011110
0000001110101000
1000000100000100
0000010001110110
1000001010100001
1000100001101100
0000000001100011
0000001010110000
1000101011101100
1000101001001001
1000101000000101
1000010110010110
1000000110010111
1000010000111001
1000000100101001
1000010110010100
1000010111011111
1000000111001011
0000000110010001
1000010000010110
1000010000110101
1000011111101010
0000011011011101
0000011011010000
0000011100001110
0000001111111100
0000001011001001
0000000010110001
1000000110010000
0000011000010100
0000010000011110
1000001110100101
0000001000000111
1000000000111110
1000001011111001
1000001010101101
0000110101111100
0000000011110001
0000001001110000
0000010010001100
0000010000110110
0000100110110111
1000000110010011
1000001001000001
0000001110000001
0000000010000100
0000010010101010
0000000100101111
0000011100010101
0000001001001011
1000111000001011
0000011110110001
0000001011011000
0000001111110111
1000101010110001
1001000101011001
0000001001010111
1000010101110111
1000011001000101
1000111001100011
1000010100110010
