1000001110001000
1000011101111011
1000001011100011
1000010000000111
1000010011100001
1000011111001001
0000000111101011
0000010101111101
0000011100010100
0000001111100101
0001000011111010
0000100010110000
1000000011000000
1000000001111011
0000000111111111
0000101101100111
0000010010000010
0000001101010011
0000110000010011
0000100100100010
0000000100010011
0000000011010100
0000011010010101
0000010100110010
0000010100100010
1000001011011101
0000000100101011
1000011101111000
1000000001101110
0000001010001101
1000010101001110
1000000011011101
1000001011010001
0000011000100111
0000000010010001
0000010010011011
0000000110100001
0000001100001111
0000100111111000
1000010100000001
0000001001110001
1000001110011110
0000011010110111
1000011001000010
1000010010101011
1000001100010111
1000000101110000
0000010101111001
1000001011010100
1000100011100000
1000100001010001
1000100110100011
0000000100101001
1000001100000101
0000010110111101
1000011001001000
1000000100011011
0000000011001010
0000001101111111
0000100100000000
1000000000001101
0000110110001111
0000000000000101
1000000010000101
1000001000011011
0000100111101010
0000011110111101
0000010000000101
0000001011110001
0000000010111001
0000010001110101
1000000001101011
1000000100011010
1000000011111100
1000000001111101
0000100110100101
1000000111100101
0000000000010010
0000001000001101
1000000010111001
0000010111110011
0000011010011110
0000010001001111
1000001101110110
0000011110100000
1000001101100011
0000100110000100
0000100111100001
0000011101101000
0000010100000010
0000000111100010
0000011000100100
0000101010111110
1000000010101111
0000001000110010
1000010001100011
0000001001011011
0000010000100001
1000000110101000
1000000000011011
1000001110000011
1000000000010000
0000001011111001
1000011010010001
1000001100100011
0000010101010000
0000010110001000
1000000010100100
0000001001111101
1000000000110000
1000000101010100
0000010101101000
1000000011111000
0000010010110101
0000000101000010
0000101110111101
1000011100101111
1000011000001011
1000000110110101
0000010011111111
0000100000110010
1000000100101111
1000100000101010
0000011000100111
0000000000100000
1000000001101100
1000100101111100
1000010110111000
1000000000010011
1000000010111001
0000000111110010
1000001001100101
0000010110001111
1000001010010100
1000000101111110
1000001111100011
0000001000001111
0000000010111111
1000001010100101
1000010011011101
0000011001100101
1000001000010011
1000001110110000
1000001000011011
0000001011110111
0000000010011011
0000011010001000
0000000000110001
1000001101001110
0000100001101110
1000001010001101
0000011101010000
1000000100110111
1000100010001101
1000100111011100
1000011010000010
0000101011110111
0000001010110001
1000001110000011
1000000001000110
1000100100100011
0000100111000110
0000011011110101
1000000101100100
0000000011100110
1000011001010101
0000101010010011
0000010111011111
1000011110010100
1000000011000111
0000010101010110
0001000100000000
1000000001011111
1000011000100111
1000011001111100
0000001011001110
1000000010011110
1000011011100111
0000000111001011
1000001010100000
0000010011101011
1000011100100001
0000000100110101
1000001000000001
0000010011001010
0000100110101110
1000100101100010
0000001011100010
0000000111110110
0000001110001101
0000101001101100
1000101011110110
1000001011001101
0000010000111000
0000000011100001
0000011010001001
1000000011100010
1000001111000001
1000001100000101
1000000011111011
1000011011110100
0000011011110110
1000000010110110
1000000001101110
0000010010011101
1000001011001011
1000000011100011
0000001110000011
1000001011000000
1000011010010010
1000010100110011
1000001110011001
0000001111000111
1000010001101110
0000001011000001
1000001001111011
0000001010101100
0000001101010010
1000100000100001
1000010001100100
1000011001111101
1000000011000001
1000001111110100
1000100001000010
0000001001111011
0000010010011010
0000011001000011
1000011001010110
1000101001000111
1000000001101001
1000011001000000
1000010000100001
1000010111111110
1000001011100011
1000001011001010
1000010001101101
1000001010110110
1000010010010010
1000001101001101
0000010000111110
1000011111100101
0000001000110010
0000011011100111
1000000100010000
0000000010110010
0000000010010010
0000000101100111
0001000000010001
0000011101000100
0000000111110100
0000000100100000
1000001100101111
0000001110010110
0000011110110000
0000010100101100
0000001100101011
0000001010011101
1000000101010110
1000001001110101
0000000100000110
1000001101000110
0000100100010111
0000011100110101
0000100000100101
0000010100111000
0000010011111000
0000011100111011
1000000010101010
0000011000110000
0000100100101100
0000011000000110
0000000010100101
0000000001110100
1000001111001010
1000010100001000
1000000110010110
0000000010110111
1000000000111100
0000011101101100
1000000011111100
1000001000111010
1000010001111100
0000000000101010
1000001110010110
1000001111100001
1000011100111110
1000100101110101
0000000111001100
0000000110111001
0000001110010011
1000010100100010
1000001110011010
0000000101110100
0000110010110010
0000010001001110
0000000000111100
1000001110010111
1000010001101001
1000010111101011
1000000110010010
1000011010100001
0000000010011101
0000000000001110
0000011100010011
1000000100011000
1000001110011001
0000000001011010
0000001011010110
0000001110100101
1000000100111000
0000010000000101
1000100100111110
0000000101001100
0000101000101010
0000101001101110
0000000011111011
0000001000010110
0000011111101010
0000100100001011
0000110010010000
1000001100010110
0000000010000100
0000001100111100
1000000010111010
0000010100110010
0000010111010001
0000000000011111
0000000111111101
0000101001000011
0000001111101011
0000000111000011
1000000100010010
0000001111100111
0000000000000111
1000001010111110
0000000011011011
0000001110001011
0000010100110111
1000000110110111
1000001010110100
1000001110001000
1000010010110010
0000101100101110
0000001001101001
1000000110111011
1000001010010010
1000000011001001
0000101011010010
0000001111111111
1000010111011100
1000000110000110
0000001101001110
0000110100100010
0000011111111000
0000010000111010
1000001001110010
0000100011110011
0000111001001100
0000000110100000
0000001101000110
0000010111011100
0000011111010011
0000000110100111
1000000101111100
0000000100110011
1000010110111011
1000000110000010
0000000010001000
0000001001101011
1000001111000001
1000010000011110
1000001100001100
1000000100010111
1000001000001100
0000001000000011
0000000000101011
0000010001111101
0000010111100111
1000001001000001
0000001001110011
0000010100001010
0000001010111000
0000001001000101
0000000010010101
1000001000001101
0000001010110011
0000000101000110
0000010010110010
1000000111110110
0000000110000000
0000000100011010
0000000100111111
0000011111001100
0000001110010101
1000001101000001
1000000001110100
0000100111110111
0000011001110001
1000001100000101
1000011010100010
1000011000000110
0000010001111110
0000010010001011
1000010001111010
0000001010111110
1000100110110100
1000000100011010
0000011001111110
1000000010000101
1000000101110001
1000011011111101
1000001110101101
0000010001110101
0000001001101100
1000000110001100
1000010001110101
0000001100011100
1000000011101111
0000000011111000
1000010011001101
0000001011001101
1000011101001000
1000001111100100
1000001110000010
1000010010101101
1000011101100000
1000000101111101
1000011101111111
1000100100011111
0000000111100101
1000011011011011
1000010100001011
1000011111010110
0000000000000010
0000000011110110
1000001000111011
1000010110010010
1000011000011011
0000001110010010
0000000101101100
0000000100111001
1000000111001110
0000011010101001
0000100100010001
0000001000100000
0000101001000010
0000011100100101
0000011010001000
0000010001100110
1000100010101001
0000001111101010
0000001110000111
0000010001111001
1000001101111010
0000101111111100
0000001100100011
0000011001110001
0000000111101001
0000010101101101
0000100111011010
0000010101010001
0000100010001010
1000000110011000
0000011101001011
0000011010001011
0000001001000001
1000001010100101
0000000000101001
0000010001110100
0000000111000010
1000010001101000
0000000001110110
0000000100111000
0000000011001110
1000001100011101
0000001010101010
0000000110011011
0000010111111100
0000100111100100
1000100110000011
0000000011000110
1000000010110011
0000101001001110
0000100010111110
1000010000000010
0000100000010000
0000101000010100
0000100100000000
0000000110000111
1000010100000101
0000001000000000
0000011001111110
0000001010010011
1000010010111001
1000001000111111
1000010011111100
0000000001011011
0000001100101110
1000000010001110
1000011101110110
1000111110110101
0000000100111001
0000100110011010
0000001000001010
0000000100100011
1000100010100110
0000001011000111
1000000100010110
1000001001010100
1000010100100001
1000100011010001
0000000110000110
1000000111001001
1000001100000100
1000001100010110
1000001101100000
1000011100100010
1000001100111010
1000000110111001
0000000011101011
1000001110110010
1000001110111011
1000001101110111
1000100000011111
1000010100001110
0000010000100001
0000011110010101
0000101010011110
0000010001011111
0000001011001011
0000000111000101
1000001110101100
0000011011010001
0000011101110101
0000000111010100
1000000011011011
1000010110101011
0000011010100000
0000010100011001
1000001101110100
0000000000110011
1000110111101000
1000010110010101
0000011001000111
1000000010101101
0000001101101010
0000000011111110
1000101000010101
1000011101010011
0000000010101110
0000001110111001
0000101011111011
1000001000100110
1000001000111001
0000001101110101
1000000101010011
0000101000101110
0000001001011000
0000000000001110
0000010100010100
0000010111001111
0000010011000101
0000000001001111
1000011101101011
1000001011011111
1000011110000111
0000100010000110
0000100101100000
0000000101001001
1000001001111011
1000100100101101
1000000101110110
0000110011111100
0000101100111110
0000010000100010
0000001110110010
1000100101000010
1000101100001101
1000110110010101
1000011011001101
0000001101111011
1000010100100100
1000011010001101
1000101110100011
1000100101000100
0000000101111001
1000100010010010
0000000100011000
1000101001001110
1000001100011100
1000100110010111
0000011100110111
0000100010111100
1000001000010010
1000001110001110
1000001001000000
0000001110010101
0000101100101000
0000100010111111
0000000110000010
0000001100100010
0000000001100010
0000000110011111
1000000001110000
0000001010011110
0000000011110000
1000001100010001
1000000101001101
0000010001111110
0000100001000101
1000001101010110
1000001001100011
1000000100110100
0000100011000111
0000010000101110
1000001100000011
1000010101111110
1000011111010001
1000001001111111
1000000010000110
1000100101010111
1000011011110001
1000011011101100
0000000100111101
0000001001101111
0000000001100000
1000010001001010
1000011000011100
1000101111111100
1000001110000001
0000000110101001
1000001110001000
1000000111011011
1000100010011011
1000011011101100
0000011011101110
0000010000111011
0000011010100011
1000000100011011
1000110110001110
0000000111000010
1000000001111001
0000011010010000
0000001100111100
1000010000011000
1000001001011101
1000010101111010
1000010101110111
0000000111101001
0000000100101001
0000011011010110
0000010111001111
0000010101100000
1000000001000010
1000011011000110
1000010110100011
0000010111000110
1000000101011100
1000100001100100
1000011010100000
0000010000111101
1000001100010011
0000100011010010
1000001101010010
1000001001011111
0000001000100001
0000110101101011
0000010111111101
0000100010111101
1000001000101110
1000000010011111
0000001000010010
0000001001110010
0000100100010011
0000010110101111
1000100010110011
1000011011010100
1000011001101010
0000101001100100
0000010011001001
1000100000001101
1000010110010011
1000001010101110
1000000110100001
0000010111011000
0000000011010110
1000010000100001
1000100010011001
0000000111101011
0000011101011101
1000000111101011
1000000010111000
1000001000011010
0000011101110101
0000001001001001
1000001110010001
1000011001110100
0000001000100111
0000010001111011
0000000111110110
1000001011111111
0000001001100010
0000011010010101
0000011101101011
0000011101000101
0000000111001011
0000000011001000
0000010100000001
0000010000010000
1000001101111010
0000000101111100
1000001110001110
0000001101001110
0000001001010000
1000011011010101
0000010010000000
1000001011011011
1000010011010001
1000001101011000
1000101000100011
0000011000001010
0000010101110100
0000000010001100
1000001111001100
1000001010010101
1000011011001101
1000000000101100
0000001101101100
0000011001100000
0000010101001000
1000000011101000
0000001111110001
1000010000011001
0000001011100100
0000011100100001
1000010011011011
1000001111010000
1000001101011101
1000100000111111
0000001010100010
0000000001110001
1000100101101100
1000000100010110
1000000000011010
1000000011010001
1000000001111010
0000011001000001
0000000001101001
1000000111011011
1000001010101100
0000000011010000
0000000001011111
0000000101000010
1000000011011110
0000000010001100
0000001001001011
0000010111101000
0000101010000001
0000101100000011
0000000100000100
0000001110001110
0000000111100111
0000100010110110
0000001000000011
0000001101101011
1000011110100101
0000010100001000
0000011100001110
1000001100110101
0000001100000000
1000000001100111
0000100010100000
0000000011010010
1000000000101101
0000100011001100
1000000110000000
0000010010100100
1000001101100000
0000000111111011
0000011101001101
0000011100100110
0000011111000001
0000000010010011
0000001010111111
0000101011001001
0000011010111111
0000010110111000
1000001011001110
1000010001111011
0000000100101010
0000001111111100
1000000101001101
0000011000101011
0000001010011011
0000000101101101
0000001110011101
1000100010001110
1000010011000101
0000011001100101
0000000100011010
1000000001000000
1000000101111100
1000000100010010
0000100101010110
0000000101100000
1000001100111000
1000100000000110
1000000011110100
1000000010001011
0000001001010011
1000001110010001
1000001111100111
1000000011011111
1000000110101101
0000001110010011
1000001011111010
1000010010101101
0000000010111101
1000000111101000
1000010011110101
0000001001011001
0000010011110111
1000010011100101
1000000101110010
0000001000001100
1000001101101110
0000011011111101
0000000010011011
0000001011110100
1000001100000010
0000010010100010
1000010111110000
0000001110101111
1000111001001011
0000010111001111
1000011001010001
1000110011111011
1000011011010100
0000001001111000
0000001111111010
1000010110000110
1000101010000101
0000001000010111
0000100100001100
1000000010001100
1000000001010011
1000000010111101
1000001111000000
1000010001011111
1000010110011010
1000000000110100
1000000001100001
1000001001100110
0000001010110001
0000000111110010
0000001001001110
1000001000100110
0000010011111000
0000100001111000
1000101000000100
0000000100101001
0000001111101111
0000000100101110
1000001100110001
1000110011100010
0000010001001100
0000000010001100
0000100001000111
1000010010100100
1000010101100100
1000001000110111
0000001110000100
0000000110111000
0000001100010010
1000011011010110
1000000011001111
1000010001111011
0000011100110000
1000000010100111
1000010000010101
0000010111010010
1000010001110010
1000001011100110
1000100001001011
0000001100110000
1000001011001111
1000001011000110
1000000101110011
1000001000001000
0000000101110001
0000100000000100
0000010010000111
1000000000011001
0000101101010101
0000110000100110
0000011100101010
0000011100100100
0000011011110000
1000000001101100
1000010010100001
