1000011000000100
0000001111111100
0000011011001111
1000011000110111
0000000011111110
0000010100111110
0000011101000010
0000001010000111
1000010000100000
1000011100110010
0001000011101000
0001001001111011
1000001100001100
1000110111100111
1000110100100001
0000110000101110
0001000101101000
1000001110001000
1000110010010110
1000011100011111
0001010011101110
0000010110111001
0000001001100110
1000010110110110
1000001110000111
0000010111001011
0000100000011110
0000010100111010
1000000100101100
0000011010111101
1000010100111111
0000101110100101
0000010111111101
0000111110101100
0000101111101101
1000000111010101
0000000101110010
0000011010011100
0001010001111100
0000111100001010
1000011110011100
1000110000010010
1000001111110001
0000100010000101
0001001010001101
1000110001101100
1000100011100011
0000100100111100
0001000011010101
0000011110010000
0000100010001011
0000101001010111
0000111001000110
0000110001010010
0000011010111000
0000100010011110
0000110000110111
0000101000101100
0000111100111110
0000110110001001
0000010100111110
0000000111111101
1000010001000101
1000000101110110
0000010010001001
0000000100101110
1000010010011101
1000100101011101
1000000100111011
1000001100101110
0000000110010000
1000100010011000
1000111001011111
1000100101001001
1000011011101000
