1000100111100000
1000111010001001
1000010010101100
0000101111010101
0000010100101111
1001000111111111
1000010111111000
0000001100010101
0000101100001101
0000100010001111
1000110001011110
1000010101110000
0000101011001101
0001000110011111
0000110101110111
1000010011010001
0000000100000000
0000110111101010
0001000100011111
0000011010111111
0000000010111010
0000011101100100
0000111000010100
0000100110100001
0000100101110100
0000010110001110
0000100111100011
0000100100011101
0000110001100000
0000100110101001
0000010110011010
0000101110110010
0000000101111001
1000001101000010
1000000000000101
0000010010111010
1000001100110111
1000011100011000
0000011111001100
0000011100100000
0000100111111111
0000011110001111
0000011000100001
0000011100001000
0001000100001001
0000000000110110
0000100110001010
0000010000100011
0000000110010001
0000010110001110
1001001001111011
1000101111010010
0000100001000100
0000101101111000
0000111111100111
1001010010001010
1000010110110000
1000001110000101
0000001101101001
0000110001110011
1001001011000100
1000111100000000
0000010100111000
0000111001111111
0000100110101101
1000111111000100
1001001001000101
0000010010110011
0000100100111010
0000101000100000
1000111100001011
1000101111110100
0000001100001001
0000100000101000
0000011011101010
