memory_initialization_radix=16;
memory_initialization_vector=
844A,
81EF,
88AB,
6C4,
8353,
5D0,
81CE,
87E9,
95,
49D,
8057,
206,
81A3,
8A62,
80C1,
676,
79,
86BA,
1B3,
32C,
887C,
59C,
82CF,
190,
8168,
4FC,
82B5,
83D8,
430,
845A,
5A,
AD6,
8215,
2F5,
81AA,
232,
81FA,
25E,
8FD6,
2B1,
819D,
81C7,
8163,
8661,
6A,
8163,
8550,
96,
505,
1F9,
83C3,
80FD,
8260,
868C,
1FD,
8A97,
87A8,
42,
544,
80D4,
82DA,
81C6,
4B,
82B0,
80EE,
8109,
8188,
2F9,
6BC,
594,
8318,
81D6,
33,
819F,
8D0E,
243,
2B0,
8614,
8136,
34B,
133,
8171,
82EB,
2BD,
8223,
8098,
888F,
8393,
794,
13A,
789,
8B5B,
815B,
14C,
1B5,
8068,
45D,
180,
866A,
4C3,
80F4,
D,
81FB,
86D1,
8687,
47E,
298,
138,
880E,
67F,
83D4,
8878,
179,
37F,
399,
6E,
815A,
8104,
131,
4D9,
83A0,
302,
8E70,
3E8,
85CC,
7F,
11D,
512,
71D,
24A,
8BCF,
512,
754,
8242,
8486,
86AD,
14,
414,
85A9,
8976,
1C8,
361,
8163,
82E2,
83E5,
608,
82BB,
497,
85D4,
6C,
1F8,
A0,
8011,
42F,
558,
808A,
2DF,
584,
8B06,
8070,
8CFA,
22B,
8103,
84D3,
49D,
8144,
85B0,
4AE,
5F3,
88DB,
849D,
8429,
79F,
F2,
844A,
85A1,
89CB,
8B0,
4B5,
8975,
8313,
8401,
81A2,
8283,
8066,
BF,
3AD,
825D,
85AA,
91B,
8B6,
633,
9AB,
86AF,
896E,
81A7,
317,
8177,
8250,
86D4,
9EE,
87F3,
775,
8209,
51F,
415,
46,
8149,
4BC,
845C,
8329,
6C,
4BF,
509,
110,
83C3,
44A,
82AC,
3FD,
8232,
8069,
1CD,
580,
22D,
801A,
2E1,
561,
8398,
82FB,
36D,
231,
85A8,
852C,
AC,
266,
698,
816D,
129,
8711,
85D0,
826F,
8553,
87C5,
86A5,
851B,
8393,
8440,
6DB,
176,
537,
8980,
130,
4AF,
697,
355,
802A,
892F,
709,
1B,
8234,
8380,
12A,
362,
221,
82B4,
393,
8386,
179,
AF,
643,
131,
83DD,
18E,
624,
8014,
314,
8074,
191,
EC,
8534,
1DE,
83AD,
8411,
8922,
85AE,
818C,
8375,
814A,
8431,
847F,
3B,
926,
20B,
8358,
4BB,
80F7,
504,
5C2,
814C,
3DC,
158,
82B0,
E4,
56,
702,
87EA,
798,
83CA,
4AF,
D2,
256,
8282,
24E,
2CC,
209,
35B,
906,
8C,
1F7,
C8,
7CC,
83A1,
99,
835C,
8243,
B35,
831,
8484,
8388,
8486,
1FC,
B5,
729,
8455,
79A,
50,
8558,
A2,
854A,
570,
865B,
2C2,
85E4,
57C,
C4,
84F9,
838A,
826,
8337,
4D5,
8A54,
8425,
82C2,
527,
4CF,
3F1,
84B5,
8102,
816D,
11B,
86C2,
8304,
539,
8003,
8187,
82BF,
12F,
8019,
807F,
868F,
3B7,
843A,
176,
2F3,
44A,
7C,
A1,
62E,
310,
469,
49F,
833B,
4F9,
82D6,
83E5,
B16,
862C,
841C,
83EF,
224,
420,
445,
8939,
872B,
A5E,
81C3,
8576,
11F,
395,
80B7,
835D,
85B4,
6C7,
3C0,
88DE,
72D,
11C,
1C3,
5C6,
8170,
809,
8111,
8236,
8240,
8147,
20C,
850A,
597,
3CD,
8024,
4E8,
8189,
8687,
2A7,
8238,
688,
82FC,
43A,
8672,
8441,
81B6,
9DB,
6D,
8E7A,
92F8,
849A,
A4,
1EF,
8416,
887D,
70F,
17D,
88D7,
A9F,
873E,
85CB,
898C,
87DC,
D6,
89DC,
86DD,
8283,
2A2,
323,
5D,
FD,
350,
39E,
9197,
BB6,
8073,
8268,
802D,
8CD3,
8E,
800F,
85CD,
219,
4CE,
83B4,
887C,
80F7,
40B,
80C8,
8110,
896,
459,
74,
267,
23D,
21C,
1F3,
84E5,
8114,
692,
80B2,
801C,
850B,
837D,
597,
121,
234,
910,
88FB,
8E8B,
390,
8299,
1C8,
800E,
8404,
13,
80A5,
1A8,
1CA,
341,
1F1,
874,
8581,
814D,
2F3,
125,
80AA,
3C3,
9,
8342,
2D,
8788,
1D2,
4E6,
3FE,
817A,
1B3,
84B3,
7D0,
9AA,
899C,
107,
1B3,
47A,
82AA,
80FF,
8043,
1A1,
49B,
83A3,
148,
294,
84D7,
6E5,
86B1,
7E3,
27D,
84C5,
2A2,
8206,
83CD,
B0,
815B,
6F9,
808A,
810A,
85DC,
39F,
1E8,
8CE,
963,
81A5,
80EF,
8122,
87B7,
34F,
81FB,
8129,
8954,
80FE,
2A9,
A08,
550,
5EA,
73B,
1CB,
858C,
80DD,
72D,
49B,
8815,
8194,
8089,
87CD,
1A8,
81A0,
80ED,
152,
1AD,
4AE,
2D6,
8074,
8041,
8034,
8599,
65D,
29E,
AE,
876A,
30B,
5F5,
827D,
1E,
8257,
86F3,
86DF,
850E,
E0C,
8123,
84C6,
8975,
4E2,
A1,
19C,
82D2,
613,
8115,
8249,
141,
51C,
865F,
80FD,
6AD,
927,
805F,
8310,
3F9,
84A3,
8117,
8568,
8009,
303,
8C,
54F,
146,
9D,
B0,
8D,
526,
1B9,
2CB,
8D8B,
87DB,
828F,
2B5,
11,
8070,
8519,
4DA,
8827,
84A9,
81BE,
83,
767,
806A,
923F,
29B,
8308,
5D8,
867A,
83E5,
87AB,
838F,
654,
816F,
B18,
61,
83C0,
30C,
2F,
80E2,
86BA,
8E98,
8CA0,
823F,
241,
81AF,
443,
6DF,
8F7,
87FF,
2B8,
78A,
8430,
8B45,
88B3,
530,
856,
86B9,
85D6,
108,
8EE1,
8324,
835C,
81EE,
88A8,
83AD,
81DC,
82D6,
8629,
56E,
82CB,
8071,
156,
766,
912,
84C1,
810F,
8796,
8649,
3BF,
8116,
806F,
AF,
81E3,
DA,
6B6,
8074,
849A,
723,
8FD,
849C,
264,
208,
804D,
32E,
2F2,
8BF0,
3A7,
39D,
8165,
A6,
6D,
3F7,
8A22,
8033,
47,
818F,
636,
85D3,
8467,
8305,
8220,
227,
8530,
9EB,
8204,
85F7,
81DA,
87F4,
190,
87C5,
82F,
4D1,
200,
69F,
80C1,
8,
992,
36D,
497,
8515,
682,
725,
8175,
6CB,
C9,
746,
425,
8769,
28B,
84AF,
53A,
87A2,
B1,
778,
D1,
302,
80BE,
830B,
78D,
81AE,
102,
8315,
83C7,
85BA,
864D,
80A8,
1BE,
467,
945,
869C,
226,
4F,
423,
84E3,
81FB,
3B1,
82AC,
81A,
81DF,
85E3,
9ED,
6E5,
835C,
80CB,
8045,
83C0,
AD,
84A3,
426,
4A2,
831E,
800F,
1AA,
5A9,
87CD,
694,
8148,
E2,
75D,
B18,
838B,
81A5,
808D,
81F0,
811C,
1EE,
82C0,
5C8,
82C2,
81B0,
756,
1AA,
845E,
8061,
3BF,
8886,
82CF,
802C,
14E,
85BF,
8593,
8134,
5E3,
80A2,
8062,
82D8,
8C0,
812A,
5B,
8883,
8118,
118,
84C9,
8BF1,
76B,
755,
82B8,
86F,
8264,
836B,
FD,
8524,
84ED,
84FA,
80DB,
338,
82D5,
80E1,
628,
85FA,
805A,
5A8,
857F,
8226,
7F0,
2E4,
82B8,
81B5,
47,
415,
394,
8102,
283,
8524,
86EA,
80F,
81D1,
16,
8039,
5FF,
88C7,
51E,
83FD,
83EC,
631,
6D9,
84BC,
447,
80F9,
85C1,
72,
375,
6B7,
390,
8531,
31,
87DC,
280,
8384,
8531,
7C2,
43,
675,
814A,
E0,
867B,
826D,
8345,
610,
5E,
3D0,
803A,
143,
80CB,
9,
1F4,
81DC,
26A,
6E6,
2B7,
8026,
D8,
301,
8030,
8198,
886E,
88FC,
E9,
8226,
27A,
2DC,
8B7A,
762,
222,
10,
83B8,
198,
374,
8C61,
84E5,
86E3,
8089,
26D,
847A,
397,
182,
8835,
45D,
1C,
8312,
822C,
833,
87D1,
34B,
877B,
17B,
118,
853F,
81F8,
5D7,
BD,
868F,
8610,
8187,
821A,
825E,
8470,
8207,
2CD,
817E,
140,
74,
87D0,
87CD,
857C,
83A2,
8460,
3EC,
458,
439,
311,
4A9,
1A4,
55,
114,
353,
F9,
1AC,
25,
8B85,
805F,
85A6,
242,
81CB,
4DB,
BCC,
96D,
24F,
194,
8223,
5B0,
553,
51F,
82C6,
8130,
30F,
8A17,
5DC,
A2,
598,
87BD,
8144,
8CD5,
3CC,
84DC,
8297,
8592,
144,
1AD,
41E,
83D2,
434,
8274,
815D,
1C3,
84A8,
809B,
8E9D,
125,
82CB,
82DA,
5C2,
827D,
11B,
8436,
80E0,
6A0,
180,
911,
3CF,
80FB,
80D1,
833D,
145,
8054,
9E,
830B,
409,
82C3,
838D,
110,
76F,
841D,
87AD,
73D,
8347,
425,
30,
80A1,
8202,
8233,
2BA,
233,
8B1D,
81DA,
8053,
545,
8432,
83FC,
6CF,
86BA,
267,
8B1F,
