memory_initialization_radix=16;
memory_initialization_vector=
8604,
3FC,
6CF,
8637,
FE,
53E,
742,
287,
8420,
8732,
10E8,
127B,
830C,
8DE7,
8D21,
C2E,
1168,
8388,
8C96,
871F,
14EE,
5B9,
266,
85B6,
8387,
5CB,
81E,
53A,
812C,
6BD,
853F,
BA5,
5FD,
FAC,
BED,
81D5,
172,
69C,
147C,
F0A,
879C,
8C12,
83F1,
885,
128D,
8C6C,
88E3,
93C,
10D5,
790,
88B,
A57,
E46,
C52,
6B8,
89E,
C37,
A2C,
F3E,
D89,
53E,
1FD,
8445,
8176,
489,
12E,
849D,
895D,
813B,
832E,
190,
8898,
8E5F,
8949,
86E8;
