1000010001001010
1000000111101111
1000100010101011
0000011011000100
1000001101010011
0000010111010000
1000000111001110
1000011111101001
0000000010010101
0000010010011101
1000000001010111
0000001000000110
1000000110100011
1000101001100010
1000000011000001
0000011001110110
0000000001111001
1000011010111010
0000000110110011
0000001100101100
1000100001111100
0000010110011100
1000001011001111
0000000110010000
1000000101101000
0000010011111100
1000001010110101
1000001111011000
0000010000110000
1000010001011010
0000000001011010
0000101011010110
1000001000010101
0000001011110101
1000000110101010
0000001000110010
1000000111111010
0000001001011110
1000111111010110
0000001010110001
1000000110011101
1000000111000111
1000000101100011
1000011001100001
0000000001101010
1000000101100011
1000010101010000
0000000010010110
0000010100000101
0000000111111001
1000001111000011
1000000011111101
1000001001100000
1000011010001100
0000000111111101
1000101010010111
1000011110101000
0000000001000010
0000010101000100
1000000011010100
1000001011011010
1000000111000110
0000000001001011
1000001010110000
1000000011101110
1000000100001001
1000000110001000
0000001011111001
0000011010111100
0000010110010100
1000001100011000
1000000111010110
0000000000110011
1000000110011111
1000110100001110
0000001001000011
0000001010110000
1000011000010100
1000000100110110
0000001101001011
0000000100110011
1000000101110001
1000001011101011
0000001010111101
1000001000100011
1000000010011000
1000100010001111
1000001110010011
0000011110010100
0000000100111010
0000011110001001
1000101101011011
1000000101011011
0000000101001100
0000000110110101
1000000001101000
0000010001011101
0000000110000000
1000011001101010
0000010011000011
1000000011110100
0000000000001101
1000000111111011
1000011011010001
1000011010000111
0000010001111110
0000001010011000
0000000100111000
1000100000001110
0000011001111111
1000001111010100
1000100001111000
0000000101111001
0000001101111111
0000001110011001
0000000001101110
1000000101011010
1000000100000100
0000000100110001
0000010011011001
1000001110100000
0000001100000010
1000111001110000
0000001111101000
1000010111001100
0000000001111111
0000000100011101
0000010100010010
0000011100011101
0000001001001010
1000101111001111
0000010100010010
0000011101010100
1000001001000010
1000010010000110
1000011010101101
0000000000010100
0000010000010100
1000010110101001
1000100101110110
0000000111001000
0000001101100001
1000000101100011
1000001011100010
1000001111100101
0000011000001000
1000001010111011
0000010010010111
1000010111010100
0000000001101100
0000000111111000
0000000010100000
1000000000010001
0000010000101111
0000010101011000
1000000010001010
0000001011011111
0000010110000100
1000101100000110
1000000001110000
1000110011111010
0000001000101011
1000000100000011
1000010011010011
0000010010011101
1000000101000100
1000010110110000
0000010010101110
0000010111110011
1000100011011011
1000010010011101
1000010000101001
0000011110011111
0000000011110010
1000010001001010
1000010110100001
1000100111001011
0000100010110000
0000010010110101
1000100101110101
1000001100010011
1000010000000001
1000000110100010
1000001010000011
1000000001100110
0000000010111111
0000001110101101
1000001001011101
1000010110101010
0000100100011011
0000100010110110
0000011000110011
0000100110101011
1000011010101111
1000100101101110
1000000110100111
0000001100010111
1000000101110111
1000001001010000
1000011011010100
0000100111101110
1000011111110011
0000011101110101
1000001000001001
0000010100011111
0000010000010101
0000000001000110
1000000101001001
0000010010111100
1000010001011100
1000001100101001
0000000001101100
0000010010111111
0000010100001001
0000000100010000
1000001111000011
0000010001001010
1000001010101100
0000001111111101
1000001000110010
1000000001101001
0000000111001101
0000010110000000
0000001000101101
1000000000011010
0000001011100001
0000010101100001
1000001110011000
1000001011111011
0000001101101101
0000001000110001
1000010110101000
1000010100101100
0000000010101100
0000001001100110
0000011010011000
1000000101101101
0000000100101001
1000011100010001
1000010111010000
1000001001101111
1000010101010011
1000011111000101
1000011010100101
1000010100011011
1000001110010011
1000010001000000
0000011011011011
0000000101110110
0000010100110111
1000100110000000
0000000100110000
0000010010101111
0000011010010111
0000001101010101
1000000000101010
1000100100101111
0000011100001001
0000000000011011
1000001000110100
1000001110000000
0000000100101010
0000001101100010
0000001000100001
1000001010110100
0000001110010011
1000001110000110
0000000101111001
0000000010101111
0000011001000011
0000000100110001
1000001111011101
0000000110001110
0000011000100100
1000000000010100
0000001100010100
1000000001110100
0000000110010001
0000000011101100
1000010100110100
0000000111011110
1000001110101101
1000010000010001
1000100100100010
1000010110101110
1000000110001100
1000001101110101
1000000101001010
1000010000110001
1000010001111111
0000000000111011
0000100100100110
0000001000001011
1000001101011000
0000010010111011
1000000011110111
0000010100000100
0000010111000010
1000000101001100
0000001111011100
0000000101011000
1000001010110000
0000000011100100
0000000001010110
0000011100000010
1000011111101010
0000011110011000
1000001111001010
0000010010101111
0000000011010010
0000001001010110
1000001010000010
0000001001001110
0000001011001100
0000001000001001
0000001101011011
0000100100000110
0000000010001100
0000000111110111
0000000011001000
0000011111001100
1000001110100001
0000000010011001
1000001101011100
1000001001000011
0000101100110101
0000100000110001
1000010010000100
1000001110001000
1000010010000110
0000000111111100
0000000010110101
0000011100101001
1000010001010101
0000011110011010
0000000001010000
1000010101011000
0000000010100010
1000010101001010
0000010101110000
1000011001011011
0000001011000010
1000010111100100
0000010101111100
0000000011000100
1000010011111001
1000001110001010
0000100000100110
1000001100110111
0000010011010101
1000101001010100
1000010000100101
1000001011000010
0000010100100111
0000010011001111
0000001111110001
1000010010110101
1000000100000010
1000000101101101
0000000100011011
1000011011000010
1000001100000100
0000010100111001
1000000000000011
1000000110000111
1000001010111111
0000000100101111
1000000000011001
1000000001111111
1000011010001111
0000001110110111
1000010000111010
0000000101110110
0000001011110011
0000010001001010
0000000001111100
0000000010100001
0000011000101110
0000001100010000
0000010001101001
0000010010011111
1000001100111011
0000010011111001
1000001011010110
1000001111100101
0000101100010110
1000011000101100
1000010000011100
1000001111101111
0000001000100100
0000010000100000
0000010001000101
1000100100111001
1000011100101011
0000101001011110
1000000111000011
1000010101110110
0000000100011111
0000001110010101
1000000010110111
1000001101011101
1000010110110100
0000011011000111
0000001111000000
1000100011011110
0000011100101101
0000000100011100
0000000111000011
0000010111000110
1000000101110000
0000100000001001
1000000100010001
1000001000110110
1000001001000000
1000000101000111
0000001000001100
1000010100001010
0000010110010111
0000001111001101
1000000000100100
0000010011101000
1000000110001001
1000011010000111
0000001010100111
1000001000111000
0000011010001000
1000001011111100
0000010000111010
1000011001110010
1000010001000001
1000000110110110
0000100111011011
0000000001101101
1000111001111010
1001001011111000
1000010010011010
0000000010100100
0000000111101111
1000010000010110
1000100001111101
0000011100001111
0000000101111101
1000100011010111
0000101010011111
1000011100111110
1000010111001011
1000100110001100
1000011111011100
0000000011010110
1000100111011100
1000011011011101
1000001010000011
0000001010100010
0000001100100011
0000000001011101
0000000011111101
0000001101010000
0000001110011110
1001000110010111
0000101110110110
1000000001110011
1000001001101000
1000000000101101
1000110011010011
0000000010001110
1000000000001111
1000010111001101
0000001000011001
0000010011001110
1000001110110100
1000100001111100
1000000011110111
0000010000001011
1000000011001000
1000000100010000
0000100010010110
0000010001011001
0000000001110100
0000001001100111
0000001000111101
0000001000011100
0000000111110011
1000010011100101
1000000100010100
0000011010010010
1000000010110010
1000000000011100
1000010100001011
1000001101111101
0000010110010111
0000000100100001
0000001000110100
0000100100010000
1000100011111011
1000111010001011
0000001110010000
1000001010011001
0000000111001000
1000000000001110
1000010000000100
0000000000010011
1000000010100101
0000000110101000
0000000111001010
0000001101000001
0000000111110001
0000100001110100
1000010110000001
1000000101001101
0000001011110011
0000000100100101
1000000010101010
0000001111000011
0000000000001001
1000001101000010
0000000000101101
1000011110001000
0000000111010010
0000010011100110
0000001111111110
1000000101111010
0000000110110011
1000010010110011
0000011111010000
0000100110101010
1000100110011100
0000000100000111
0000000110110011
0000010001111010
1000001010101010
1000000011111111
1000000001000011
0000000110100001
0000010010011011
1000001110100011
0000000101001000
0000001010010100
1000010011010111
0000011011100101
1000011010110001
0000011111100011
0000001001111101
1000010011000101
0000001010100010
1000001000000110
1000001111001101
0000000010110000
1000000101011011
0000011011111001
1000000010001010
1000000100001010
1000010111011100
0000001110011111
0000000111101000
0000100011001110
0000100101100011
1000000110100101
1000000011101111
1000000100100010
1000011110110111
0000001101001111
1000000111111011
1000000100101001
1000100101010100
1000000011111110
0000001010101001
0000101000001000
0000010101010000
0000010111101010
0000011100111011
0000000111001011
1000010110001100
1000000011011101
0000011100101101
0000010010011011
1000100000010101
1000000110010100
1000000010001001
1000011111001101
0000000110101000
1000000110100000
1000000011101101
0000000101010010
0000000110101101
0000010010101110
0000001011010110
1000000001110100
1000000001000001
1000000000110100
1000010110011001
0000011001011101
0000001010011110
0000000010101110
1000011101101010
0000001100001011
0000010111110101
1000001001111101
0000000000011110
1000001001010111
1000011011110011
1000011011011111
1000010100001110
0000111000001100
1000000100100011
1000010011000110
1000100101110101
0000010011100010
0000000010100001
0000000110011100
1000001011010010
0000011000010011
1000000100010101
1000001001001001
0000000101000001
0000010100011100
1000011001011111
1000000011111101
0000011010101101
0000100100100111
1000000001011111
1000001100010000
0000001111111001
1000010010100011
1000000100010111
1000010101101000
1000000000001001
0000001100000011
0000000010001100
0000010101001111
0000000101000110
0000000010011101
0000000010110000
0000000010001101
0000010100100110
0000000110111001
0000001011001011
1000110110001011
1000011111011011
1000001010001111
0000001010110101
0000000000010001
1000000001110000
1000010100011001
0000010011011010
1000100000100111
1000010010101001
1000000110111110
0000000010000011
0000011101100111
1000000001101010
1001001000111111
0000001010011011
1000001100001000
0000010111011000
1000011001111010
1000001111100101
1000011110101011
1000001110001111
0000011001010100
1000000101101111
0000101100011000
0000000001100001
1000001111000000
0000001100001100
0000000000101111
1000000011100010
1000011010111010
1000111010011000
1000110010100000
1000001000111111
0000001001000001
1000000110101111
0000010001000011
0000011011011111
0000100011110111
1000011111111111
0000001010111000
0000011110001010
1000010000110000
1000101101000101
1000100010110011
0000010100110000
0000100001010110
1000011010111001
1000010111010110
0000000100001000
1000111011100001
1000001100100100
1000001101011100
1000000111101110
1000100010101000
1000001110101101
1000000111011100
1000001011010110
1000011000101001
0000010101101110
1000001011001011
1000000001110001
0000000101010110
0000011101100110
0000100100010010
1000010011000001
1000000100001111
1000011110010110
1000011001001001
0000001110111111
1000000100010110
1000000001101111
0000000010101111
1000000111100011
0000000011011010
0000011010110110
1000000001110100
1000010010011010
0000011100100011
0000100011111101
1000010010011100
0000001001100100
0000001000001000
1000000001001101
0000001100101110
0000001011110010
1000101111110000
0000001110100111
0000001110011101
1000000101100101
0000000010100110
0000000001101101
0000001111110111
1000101000100010
1000000000110011
0000000001000111
1000000110001111
0000011000110110
1000010111010011
1000010001100111
1000001100000101
1000001000100000
0000001000100111
1000010100110000
0000100111101011
1000001000000100
1000010111110111
1000000111011010
1000011111110100
0000000110010000
1000011111000101
0000100000101111
0000010011010001
0000001000000000
0000011010011111
1000000011000001
0000000000001000
0000100110010010
0000001101101101
0000010010010111
1000010100010101
0000011010000010
0000011100100101
1000000101110101
0000011011001011
0000000011001001
0000011101000110
0000010000100101
1000011101101001
0000001010001011
1000010010101111
0000010100111010
1000011110100010
0000000010110001
0000011101111000
0000000011010001
0000001100000010
1000000010111110
1000001100001011
0000011110001101
1000000110101110
0000000100000010
1000001100010101
1000001111000111
1000010110111010
1000011001001101
1000000010101000
0000000110111110
0000010001100111
0000100101000101
1000011010011100
0000001000100110
0000000001001111
0000010000100011
1000010011100011
1000000111111011
0000001110110001
1000001010101100
0000100000011010
1000000111011111
1000010111100011
0000100111101101
0000011011100101
1000001101011100
1000000011001011
1000000001000101
1000001111000000
0000000010101101
1000010010100011
0000010000100110
0000010010100010
1000001100011110
1000000000001111
0000000110101010
0000010110101001
1000011111001101
0000011010010100
1000000101001000
0000000011100010
0000011101011101
0000101100011000
1000001110001011
1000000110100101
1000000010001101
1000000111110000
1000000100011100
0000000111101110
1000001011000000
0000010111001000
1000001011000010
1000000110110000
0000011101010110
0000000110101010
1000010001011110
1000000001100001
0000001110111111
1000100010000110
1000001011001111
1000000000101100
0000000101001110
1000010110111111
1000010110010011
1000000100110100
0000010111100011
1000000010100010
1000000001100010
1000001011011000
0000100011000000
1000000100101010
0000000001011011
1000100010000011
1000000100011000
0000000100011000
1000010011001001
1000101111110001
0000011101101011
0000011101010101
1000001010111000
0000100001101111
1000001001100100
1000001101101011
0000000011111101
1000010100100100
1000010011101101
1000010011111010
1000000011011011
0000001100111000
1000001011010101
1000000011100001
0000011000101000
1000010111111010
1000000001011010
0000010110101000
1000010101111111
1000001000100110
0000011111110000
0000001011100100
1000001010111000
1000000110110101
0000000001000111
0000010000010101
0000001110010100
1000000100000010
0000001010000011
1000010100100100
1000011011101010
0000100000001111
1000000111010001
0000000000010110
1000000000111001
0000010111111111
1000100011000111
0000010100011110
1000001111111101
1000001111101100
0000011000110001
0000011011011001
1000010010111100
0000010001000111
1000000011111001
1000010111000001
0000000001110010
0000001101110101
0000011010110111
0000001110010000
1000010100110001
0000000000110001
1000011111011100
0000001010000000
1000001110000100
1000010100110001
0000011111000010
0000000001000011
0000011001110101
1000000101001010
0000000011100000
1000011001111011
1000001001101101
1000001101000101
0000011000010000
0000000001011110
0000001111010000
1000000000111010
0000000101000011
1000000011001011
0000000000001001
0000000111110100
1000000111011100
0000001001101010
0000011011100110
0000001010110111
1000000000100110
0000000011011000
0000001100000001
1000000000110000
1000000110011000
1000100001101110
1000100011111100
0000000011101001
1000001000100110
0000001001111010
0000001011011100
1000101101111010
0000011101100010
0000001000100010
0000000000010000
1000001110111000
0000000110011000
0000001101110100
1000110001100001
1000010011100101
1000011011100011
1000000010001001
0000001001101101
1000010001111010
0000001110010111
0000000110000010
1000100000110101
0000010001011101
0000000000011100
1000001100010010
1000001000101100
0000100000110011
1000011111010001
0000001101001011
1000011101111011
0000000101111011
0000000100011000
1000010100111111
1000000111111000
0000010111010111
0000000010111101
1000011010001111
1000011000010000
1000000110000111
1000001000011010
1000001001011110
1000010001110000
1000001000000111
0000001011001101
1000000101111110
0000000101000000
0000000001110100
1000011111010000
1000011111001101
1000010101111100
1000001110100010
1000010001100000
0000001111101100
0000010001011000
0000010000111001
0000001100010001
0000010010101001
0000000110100100
0000000001010101
0000000100010100
0000001101010011
0000000011111001
0000000110101100
0000000000100101
1000101110000101
1000000001011111
1000010110100110
0000001001000010
1000000111001011
0000010011011011
0000101111001100
0000100101101101
0000001001001111
0000000110010100
1000001000100011
0000010110110000
0000010101010011
0000010100011111
1000001011000110
1000000100110000
0000001100001111
1000101000010111
0000010111011100
0000000010100010
0000010110011000
1000011110111101
1000000101000100
1000110011010101
0000001111001100
1000010011011100
1000001010010111
1000010110010010
0000000101000100
0000000110101101
0000010000011110
1000001111010010
0000010000110100
1000001001110100
1000000101011101
0000000111000011
1000010010101000
1000000010011011
1000111010011101
0000000100100101
1000001011001011
1000001011011010
0000010111000010
1000001001111101
0000000100011011
1000010000110110
1000000011100000
0000011010100000
0000000110000000
0000100100010001
0000001111001111
1000000011111011
1000000011010001
1000001100111101
0000000101000101
1000000001010100
0000000010011110
1000001100001011
0000010000001001
1000001011000011
1000001110001101
0000000100010000
0000011101101111
1000010000011101
1000011110101101
0000011100111101
1000001101000111
0000010000100101
0000000000110000
1000000010100001
1000001000000010
1000001000110011
0000001010111010
0000001000110011
1000101100011101
1000000111011010
1000000001010011
0000010101000101
1000010000110010
1000001111111100
0000011011001111
1000011010111010
0000001001100111
1000101100011111
