memory_initialization_radix=16;
memory_initialization_vector=
89E0,
8E89,
84AC,
BD5,
52F,
91FF,
85F8,
315,
B0D,
88F,
8C5E,
8570,
ACD,
119F,
D77,
84D1,
100,
DEA,
111F,
6BF,
BA,
764,
E14,
9A1,
974,
58E,
9E3,
91D,
C60,
9A9,
59A,
BB2,
179,
8342,
8005,
4BA,
8337,
8718,
7CC,
720,
9FF,
78F,
621,
708,
1109,
36,
98A,
423,
191,
58E,
927B,
8BD2,
844,
B78,
FE7,
948A,
85B0,
8385,
369,
C73,
92C4,
8F00,
538,
E7F,
9AD,
8FC4,
9245,
4B3,
93A,
A20,
8F0B,
8BF4,
309,
828,
6EA;
