memory_initialization_radix=16;
memory_initialization_vector=
8388,
877B,
82E3,
8407,
84E1,
87C9,
1EB,
57D,
714,
3E5,
10FA,
8B0,
80C0,
807B,
1FF,
B67,
482,
353,
C13,
922,
113,
D4,
695,
532,
522,
82DD,
12B,
8778,
806E,
28D,
854E,
80DD,
82D1,
627,
91,
49B,
1A1,
30F,
9F8,
8501,
271,
839E,
6B7,
8642,
84AB,
8317,
8170,
579,
82D4,
88E0,
8851,
89A3,
129,
8305,
5BD,
8648,
811B,
CA,
37F,
900,
800D,
D8F,
5,
8085,
821B,
9EA,
7BD,
405,
2F1,
B9,
475,
806B,
811A,
80FC,
807D,
9A5,
81E5,
12,
20D,
80B9,
5F3,
69E,
44F,
8376,
7A0,
8363,
984,
9E1,
768,
502,
1E2,
624,
ABE,
80AF,
232,
8463,
25B,
421,
81A8,
801B,
8383,
8010,
2F9,
8691,
8323,
550,
588,
80A4,
27D,
8030,
8154,
568,
80F8,
4B5,
142,
BBD,
872F,
860B,
81B5,
4FF,
832,
812F,
882A,
627,
20,
806C,
897C,
85B8,
8013,
80B9,
1F2,
8265,
58F,
8294,
817E,
83E3,
20F,
BF,
82A5,
84DD,
665,
8213,
83B0,
821B,
2F7,
9B,
688,
31,
834E,
86E,
828D,
750,
8137,
888D,
89DC,
8682,
AF7,
2B1,
8383,
8046,
8923,
9C6,
6F5,
8164,
E6,
8655,
A93,
5DF,
8794,
80C7,
556,
1100,
805F,
8627,
867C,
2CE,
809E,
86E7,
1CB,
82A0,
4EB,
8721,
135,
8201,
4CA,
9AE,
8962,
2E2,
1F6,
38D,
A6C,
8AF6,
82CD,
438,
E1,
689,
80E2,
83C1,
8305,
80FB,
86F4,
6F6,
80B6,
806E,
49D,
82CB,
80E3,
383,
82C0,
8692,
8533,
8399,
3C7,
846E,
2C1,
827B,
2AC,
352,
8821,
8464,
867D,
80C1,
83F4,
8842,
27B,
49A,
643,
8656,
8A47,
8069,
8640,
8421,
85FE,
82E3,
82CA,
846D,
82B6,
8492,
834D,
43E,
87E5,
232,
6E7,
8110,
B2,
92,
167,
1011,
744,
1F4,
120,
832F,
396,
7B0,
52C,
32B,
29D,
8156,
8275,
106,
8346,
917,
735,
825,
538,
4F8,
73B,
80AA,
630,
92C,
606,
A5,
74,
83CA,
8508,
8196,
B7,
803C,
76C,
80FC,
823A,
847C,
2A,
8396,
83E1,
873E,
8975,
1CC,
1B9,
393,
8522,
839A,
174,
CB2,
44E,
3C,
8397,
8469,
85EB,
8192,
86A1,
9D,
E,
713,
8118,
8399,
5A,
2D6,
3A5,
8138,
405,
893E,
14C,
A2A,
A6E,
FB,
216,
7EA,
90B,
C90,
8316,
84,
33C,
80BA,
532,
5D1,
1F,
1FD,
A43,
3EB,
1C3,
8112,
3E7,
7,
82BE,
DB,
38B,
537,
81B7,
82B4,
8388,
84B2,
B2E,
269,
81BB,
8292,
80C9,
AD2,
3FF,
85DC,
8186,
34E,
D22,
7F8,
43A,
8272,
8F3,
E4C,
1A0,
346,
5DC,
7D3,
1A7,
817C,
133,
85BB,
8182,
88,
26B,
83C1,
841E,
830C,
8117,
820C,
203,
2B,
47D,
5E7,
8241,
273,
50A,
2B8,
245,
95,
820D,
2B3,
146,
4B2,
81F6,
180,
11A,
13F,
7CC,
395,
8341,
8074,
9F7,
671,
8305,
86A2,
8606,
47E,
48B,
847A,
2BE,
89B4,
811A,
67E,
8085,
8171,
86FD,
83AD,
475,
26C,
818C,
8475,
31C,
80EF,
F8,
84CD,
2CD,
8748,
83E4,
8382,
84AD,
8760,
817D,
877F,
891F,
1E5,
86DB,
850B,
87D6,
2,
F6,
823B,
8592,
861B,
392,
16C,
139,
81CE,
6A9,
911,
220,
A42,
725,
688,
466,
88A9,
3EA,
387,
479,
837A,
BFC,
323,
671,
1E9,
56D,
9DA,
551,
88A,
8198,
74B,
68B,
241,
82A5,
29,
474,
1C2,
8468,
76,
138,
CE,
831D,
2AA,
19B,
5FC,
9E4,
8983,
C6,
80B3,
A4E,
8BE,
8402,
810,
A14,
900,
187,
8505,
200,
67E,
293,
84B9,
823F,
84FC,
5B,
32E,
808E,
8776,
8FB5,
139,
99A,
20A,
123,
88A6,
2C7,
8116,
8254,
8521,
88D1,
186,
81C9,
8304,
8316,
8360,
8722,
833A,
81B9,
EB,
83B2,
83BB,
8377,
881F,
850E,
421,
795,
A9E,
45F,
2CB,
1C5,
83AC,
6D1,
775,
1D4,
80DB,
85AB,
6A0,
519,
8374,
33,
8DE8,
8595,
647,
80AD,
36A,
FE,
8A15,
8753,
AE,
3B9,
AFB,
8226,
8239,
375,
8153,
A2E,
258,
E,
514,
5CF,
4C5,
4F,
876B,
82DF,
8787,
886,
960,
149,
827B,
892D,
8176,
CFC,
B3E,
422,
3B2,
8942,
8B0D,
8D95,
86CD,
37B,
8524,
868D,
8BA3,
8944,
179,
8892,
118,
8A4E,
831C,
8997,
737,
8BC,
8212,
838E,
8240,
395,
B28,
8BF,
182,
322,
62,
19F,
8070,
29E,
F0,
8311,
814D,
47E,
845,
8356,
8263,
8134,
8C7,
42E,
8303,
857E,
87D1,
827F,
8086,
8957,
86F1,
86EC,
13D,
26F,
60,
844A,
861C,
8BFC,
8381,
1A9,
8388,
81DB,
889B,
86EC,
6EE,
43B,
6A3,
811B,
8D8E,
1C2,
8079,
690,
33C,
8418,
825D,
857A,
8577,
1E9,
129,
6D6,
5CF,
560,
8042,
86C6,
85A3,
5C6,
815C,
8864,
86A0,
43D,
8313,
8D2,
8352,
825F,
221,
D6B,
5FD,
8BD,
822E,
809F,
212,
272,
913,
5AF,
88B3,
86D4,
866A,
A64,
4C9,
880D,
8593,
82AE,
81A1,
5D8,
D6,
8421,
8899,
1EB,
75D,
81EB,
80B8,
821A,
775,
249,
8391,
8674,
227,
47B,
1F6,
82FF,
262,
695,
76B,
745,
1CB,
C8,
501,
410,
837A,
17C,
838E,
34E,
250,
86D5,
480,
82DB,
84D1,
8358,
8A23,
60A,
574,
8C,
83CC,
8295,
86CD,
802C,
36C,
660,
548,
80E8,
3F1,
8419,
2E4,
721,
84DB,
83D0,
835D,
883F,
2A2,
71,
896C,
8116,
801A,
80D1,
807A,
641,
69,
81DB,
82AC,
D0,
5F,
142,
80DE,
8C,
24B,
5E8,
A81,
B03,
104,
38E,
1E7,
8B6,
203,
36B,
87A5,
508,
70E,
8335,
300,
8067,
8A0,
D2,
802D,
8CC,
8180,
4A4,
8360,
1FB,
74D,
726,
7C1,
93,
2BF,
AC9,
6BF,
5B8,
82CE,
847B,
12A,
3FC,
814D,
62B,
29B,
16D,
39D,
888E,
84C5,
665,
11A,
8040,
817C,
8112,
956,
160,
8338,
8806,
80F4,
808B,
253,
8391,
83E7,
80DF,
81AD,
393,
82FA,
84AD,
BD,
81E8,
84F5,
259,
4F7,
84E5,
8172,
20C,
836E,
6FD,
9B,
2F4,
8302,
4A2,
85F0,
3AF,
8E4B,
5CF,
8651,
8CFB,
86D4,
278,
3FA,
8586,
8A85,
217,
90C,
808C,
8053,
80BD,
83C0,
845F,
859A,
8034,
8061,
8266,
2B1,
1F2,
24E,
8226,
4F8,
878,
8A04,
129,
3EF,
12E,
8331,
8CE2,
44C,
8C,
847,
84A4,
8564,
8237,
384,
1B8,
312,
86D6,
80CF,
847B,
730,
80A7,
8415,
5D2,
8472,
82E6,
884B,
330,
82CF,
82C6,
8173,
8208,
171,
804,
487,
8019,
B55,
C26,
72A,
724,
6F0,
806C,
84A1;