memory_initialization_radix=16;
memory_initialization_vector=
332,
3D1,
8209,
1E3,
239,
55B,
92B,
54B,
80ED,
80E4,
8E1,
829E,
84C7,
839F,
8228,
353,
842A,
8010,
3A0,
8524,
80B3,
82E0,
604,
3D6,
83B0,
8567,
8345,
816A,
F3,
1F2,
6F9,
1C7,
9A,
8477,
8075,
138,
3D6,
908,
AC,
84C2,
6D0,
79E,
8481,
850E,
674,
3BA,
87B7,
811F,
8466,
3E2,
8672,
8079,
8843,
8241,
8503,
A1,
8176,
89FB,
8287,
80CF,
820B,
8760,
8610,
2C9,
8366,
8821,
878A,
23B,
80B1,
6B,
82B5,
5D7,
A56,
673,
84F2,
8547,
477,
3DC,
8A7A,
88E1,
27F,
810,
324,
8995,
8371,
875A,
8365,
82AC,
111,
8391,
76F,
88C6,
8933,
272,
168,
10F,
8254,
81B4,
4F5,
80E0,
70E,
333,
8215,
12F,
8383,
85E,
8097,
8526,
83EE,
8374,
7D6,
806C,
2A9,
8857,
84B5,
897,
5AD,
848B,
803B,
532,
72C,
671,
8070,
867F,
4E9,
8899,
845D,
409,
859C,
812E,
8AD6,
81A1,
86C5,
8452,
82FC,
82D1,
607,
8AEB,
31A,
8125,
85BE,
848C,
8305,
5B0,
109,
8564,
889A,
856B,
8263,
607,
42A,
84DA,
8A6C,
8339,
84BF,
43F,
8A9C,
8590,
8133,
821D,
CDA,
889A,
8503,
8132,
6D5,
9A5,
831F,
8070,
30A,
8461,
BA6,
86D1,
530,
8019,
80B1,
81D1,
B0,
82F1,
8437,
1E5,
3FD,
818E,
22E,
845C,
8298,
819B,
4A2,
84D3,
8A8B,
8434,
174,
62E,
839E,
859A,
F6,
8047,
83E3,
858B,
8357,
5E,
287,
83B8,
7E5,
E92,
2CE,
456,
8574,
3BD,
53A,
247,
DA6,
8026,
C68,
C26,
4F1,
CC7,
33D,
4AF,
71E,
80DD,
DA6,
849C,
E0,
518,
510,
206,
80A4,
81A9,
611,
81E1,
80D0,
3E2,
305,
646,
80AC,
8025,
248,
12B,
2EA,
85A5,
54A,
868,
8723,
8A45,
8564,
688,
9BF,
814B,
8600,
20C,
8201,
830C,
8297,
693,
DA,
834E,
8266,
4C2,
4C9,
8E3,
F4,
21E,
514,
2E9,
B0B,
8034,
511,
CC8,
15C,
155,
17C,
DC,
73B,
49C,
860A,
333,
81A8,
81AE,
8556,
8C17,
82D4,
8120,
8491,
8A2F,
895A,
52A,
78F,
89D0,
8836,
80A8,
356,
B40,
8709,
8691,
8482,
7E8,
754,
8398,
72E,
815A,
8B5,
B4,
171,
2AE,
88C1,
580,
1AD,
83EB,
8AE0,
85D6,
263,
82EA,
6F8,
CF,
8358,
811D,
24C,
5D2,
D0,
874F,
8476,
21F,
19A,
5CA,
863F,
131,
57D,
E8,
3F7,
492,
8198,
818F,
3C8,
52D,
836,
8265,
8006,
616,
8120,
541,
238,
8183,
84A8,
8097,
83D8,
1E5,
87D5,
494,
883,
146,
378,
4A5,
82C5,
828F,
85D3,
46C,
80C0,
8E,
1A3,
3F2,
39B,
8004,
5F0,
363,
809B,
813B,
80DE,
359,
657,
8288,
DB,
848,
B21,
904,
83F3,
8987,
8574,
2B4,
84C0,
824F,
872D,
35C,
9CD,
905,
567,
8245,
304,
97C,
806A,
450,
84C3,
58B,
539,
449,
86C6,
289,
813F,
838B,
896E,
87DC,
8262,
3B,
8635,
8342,
2BF,
82EC,
E7,
0,
112,
83A8,
48C,
261,
8009,
83DD,
822E,
93C,
746,
845C,
FD,
8335,
410,
19B,
28,
8133,
86FC,
83AB,
41F,
808,
987,
1E5,
8994,
7AA,
F71,
80A7,
85E8,
8855,
66C,
85C,
1A8,
8147,
8D15,
699,
883,
1D7,
1B3,
8910,
85E0,
334,
8463,
1A,
3C,
85A,
8539,
137,
8AE4,
8156,
311,
244,
75A,
83C1,
446,
831B,
787,
3CB,
886A,
2BB,
8381,
83DA,
8081,
804F,
282,
848D,
81C5,
8359,
38D,
8084,
391,
807,
8AF,
84BC,
8466,
8006,
83D,
8034,
2F9,
824D,
834E,
97,
2E8,
876E,
87A3,
5B,
475,
345,
86A7,
19D,
8743,
836C,
687,
81D9,
2AA,
419,
84DF,
83B8,
835E,
B48,
2A9,
100,
A5D,
86D7,
780,
7E1,
5DD,
794,
439,
326,
45D,
8FA,
511,
260,
8C9,
99B,
8114,
4CF,
82D6,
62B,
297,
1F0,
68,
604,
4D2,
825,
896D,
80CE,
604,
8155,
36,
8682,
8908,
916,
88F4,
2E4,
8BF1,
82E3,
37B,
8453,
8326,
1A2,
8838,
814D,
8486,
5B,
8575,
8821,
8616,
2C3,
174,
234,
82EB,
84AE,
813C,
821,
7B0,
216,
456,
8292,
81F7,
3C7,
54D,
373,
809F,
160,
8274,
425,
AE9,
2E1,
3EF,
8341,
F2C,
59E,
784,
7FC,
368,
87BF,
5E9,
618,
C02,
8405,
8762,
8767,
A4,
788,
824D,
90F9,
8B63,
870D,
2AF,
1B4,
8766,
8DFC,
47C,
86A2,
8157,
8650,
8251,
8136,
530,
819C,
100,
8668,
AD9,
4A1,
384,
5C4,
82C6,
926,
749,
4E4,
8015,
86E9,
57F,
8665,
8078,
513,
8A43,
832C,
30D,
8543,
8304,
83CF,
63,
65A,
230,
847B,
8141,
78E,
574,
246,
56A,
2EB,
15D,
60E,
FB,
27A,
18B,
2E7,
82DF,
5D6,
C4,
141,
80CF,
1EB,
8083,
83F2,
B4,
4B5,
83FF,
889F,
8A5E,
80AB,
939,
8122,
8242,
82DB,
884A,
931,
1F3,
2F8,
B40,
883A,
8156,
289,
947,
93E,
8A2D,
146,
13A,
C47,
38B,
3FE,
819B,
42E,
7BE,
8296,
618,
2A5,
21D,
5B1,
C39,
8291,
85F7,
825D,
1DA,
CE,
856D,
31F,
818D,
827C,
835C,
8185,
821B,
8421,
8059,
7B9,
22F,
8566,
5C,
8279,
298,
1C7,
857B,
8376,
56F,
8039,
84F1,
8299,
81D1,
80C7,
7B,
48B,
8253,
8284,
3C7,
80C1,
8851,
8098,
6FC,
576,
5A5,
77F,
53A,
84E,
800B,
63F,
C0,
81BD,
84C6,
544,
277,
335,
359,
43B,
2C9,
9F2,
8,
83FB,
2DA,
8005,
3F1,
81B3,
41F,
839C,
9AC,
4F9,
50A,
1CA,
5F1,
222,
8831,
325,
3C1,
8110,
8615,
197,
163,
2E9,
7AB,
86C2,
8079,
22A,
8F,
8522,
543,
13A,
853E,
8314,
87,
26F,
99,
8D3,
600,
82D3,
112,
2C8,
420,
151,
8178,
D7,
8651,
218,
825E,
F0,
836F,
8490,
85B0,
3C5,
11D,
89,
805D,
818D,
8288,
281,
7DE,
2F2,
5FF,
83BA,
940,
1A1,
4B6,
A69,
8444,
910,
809F,
801,
A3A,
AB,
227,
1F4,
139,
858F,
88C7,
80E3,
73F,
D21,
83EF,
46A,
4B6,
8072,
7F5,
7F5,
6C3,
803C,
8022,
AA9,
826,
52A,
22D,
7D7,
635,
31E,
3A8,
8104,
476,
82A1,
886C,
63,
2B0,
8AEC,
8A49,
8A05,
8596,
8197,
8439,
8129,
8594,
85DF,
81CB,
191,
8416,
8435,
87EA,
6DD,
6D0,
70E,
3FC,
2C9,
B1,
8190,
614,
41E,
83A5,
207,
803E,
82F9,
82AD,
D7C,
F1,
270,
48C,
436,
9B7,
8193,
8241,
381,
84,
4AA,
12F,
715,
24B,
8E0B,
7B1,
2D8,
3F7,
8AB1,
9159,
257,
8577,
8645,
8E63,
8532;